{
    "vocab_size": 600,
    "min_frequency": 2,
    "vocab": {
        "\n": 4,
        " ": 5,
        "!": 6,
        "\"": 7,
        "#": 8,
        "$": 9,
        "%": 10,
        "&": 11,
        "'": 12,
        "(": 13,
        ")": 14,
        "+": 15,
        ",": 16,
        "-": 17,
        ".": 18,
        "/": 19,
        "0": 20,
        "1": 21,
        "2": 22,
        "3": 23,
        "4": 24,
        "5": 25,
        "6": 26,
        "7": 27,
        "8": 28,
        "9": 29,
        ":": 30,
        ";": 31,
        "=": 32,
        "@": 33,
        "A": 34,
        "B": 35,
        "C": 36,
        "D": 37,
        "E": 38,
        "F": 39,
        "G": 40,
        "H": 41,
        "I": 42,
        "J": 43,
        "K": 44,
        "L": 45,
        "M": 46,
        "N": 47,
        "O": 48,
        "P": 49,
        "Q": 50,
        "R": 51,
        "S": 52,
        "T": 53,
        "U": 54,
        "V": 55,
        "W": 56,
        "X": 57,
        "Y": 58,
        "Z": 59,
        "[": 60,
        "]": 61,
        "a": 62,
        "b": 63,
        "c": 64,
        "d": 65,
        "e": 66,
        "f": 67,
        "g": 68,
        "h": 69,
        "i": 70,
        "j": 71,
        "k": 72,
        "l": 73,
        "m": 74,
        "n": 75,
        "o": 76,
        "p": 77,
        "q": 78,
        "r": 79,
        "s": 80,
        "t": 81,
        "u": 82,
        "v": 83,
        "w": 84,
        "x": 85,
        "y": 86,
        "z": 87,
        "~": 88,
        "\u00a3": 89,
        "\u00b0": 90,
        "\u00b2": 91,
        "\u00b5": 92,
        "\u00c4": 93,
        "\u00c6": 94,
        "\u00e1": 95,
        "\u00e4": 96,
        "\u00e5": 97,
        "\u00e9": 98,
        "\u00ed": 99,
        "\u0107": 100,
        "\u014c": 101,
        "\u014d": 102,
        "\u0160": 103,
        "\u016b": 104,
        "\u1e0f": 105,
        "\u1e6f": 106,
        "\u2013": 107,
        "\u2014": 108,
        "\u2018": 109,
        "\u2019": 110,
        "\u201c": 111,
        "\u201d": 112,
        "\u2020": 113,
        "\u2021": 114,
        "\u20a4": 115,
        "\u20b9": 116,
        "\u3044": 117,
        "\u3046": 118,
        "\u304b": 119,
        "\u304c": 120,
        "\u304d": 121,
        "\u304f": 122,
        "\u3057": 123,
        "\u305f": 124,
        "\u3064": 125,
        "\u306a": 126,
        "\u306e": 127,
        "\u3081": 128,
        "\u3082": 129,
        "\u3089": 130,
        "\u30a1": 131,
        "\u30a2": 132,
        "\u30ad": 133,
        "\u30e5": 134,
        "\u30ea": 135,
        "\u30eb": 136,
        "\u30f4": 137,
        "\u4e59": 138,
        "\u5149": 139,
        "\u540d": 140,
        "\u541b": 141,
        "\u547d": 142,
        "\u54b2": 143,
        "\u5834": 144,
        "\u5973": 145,
        "\u6226": 146,
        "\u706f": 147,
        "\u7621": 148,
        "\u82b1": 149,
        "\u8a93": 150,
        "\u8ab0": 151,
        "\u8d64": 152,
        "\u904b": 153,
        "\u9283": 154,
        "\u9858": 155,
        "\uff13": 156,
        "\ufffd": 157,
        "th": 158,
        "in": 159,
        "er": 160,
        "the": 161,
        "an": 162,
        "on": 163,
        "ed": 164,
        "or": 165,
        "at": 166,
        "es": 167,
        "en": 168,
        "ar": 169,
        "al": 170,
        "as": 171,
        "of": 172,
        "and": 173,
        "ing": 174,
        "is": 175,
        "it": 176,
        "re": 177,
        "to": 178,
        "ion": 179,
        "ic": 180,
        "ro": 181,
        "st": 182,
        "he": 183,
        "ou": 184,
        "ac": 185,
        "le": 186,
        "for": 187,
        "ly": 188,
        "de": 189,
        "ir": 190,
        "ent": 191,
        "am": 192,
        "om": 193,
        "il": 194,
        "se": 195,
        "was": 196,
        "be": 197,
        "iv": 198,
        "un": 199,
        "ch": 200,
        "The": 201,
        "ation": 202,
        "ter": 203,
        "lo": 204,
        "ad": 205,
        "od": 206,
        "ith": 207,
        "ay": 208,
        "@-": 209,
        "@-@": 210,
        "ur": 211,
        "ig": 212,
        "ere": 213,
        "im": 214,
        "ol": 215,
        "with": 216,
        "wh": 217,
        "ts": 218,
        "tr": 219,
        "con": 220,
        "ul": 221,
        "that": 222,
        "ies": 223,
        "ce": 224,
        "um": 225,
        "us": 226,
        "ot": 227,
        "'s": 228,
        "pl": 229,
        "av": 230,
        "pe": 231,
        "ers": 232,
        "were": 233,
        "te": 234,
        "com": 235,
        "ct": 236,
        "id": 237,
        "rom": 238,
        "by": 239,
        "ess": 240,
        "po": 241,
        "pr": 242,
        "ver": 243,
        "ap": 244,
        "19": 245,
        "god": 246,
        "are": 247,
        "el": 248,
        "ag": 249,
        "ain": 250,
        "all": 251,
        "if": 252,
        "sh": 253,
        "su": 254,
        "air": 255,
        "ip": 256,
        "ab": 257,
        "af": 258,
        "per": 259,
        "ist": 260,
        "ate": 261,
        "ian": 262,
        "ut": 263,
        "em": 264,
        "ow": 265,
        "ame": 266,
        "ne": 267,
        "cr": 268,
        "from": 269,
        "ke": 270,
        "ther": 271,
        "ld": 272,
        "pt": 273,
        "ie": 274,
        "est": 275,
        "igh": 276,
        "00": 277,
        "so": 278,
        "ia": 279,
        "lu": 280,
        "pro": 281,
        "art": 282,
        "ated": 283,
        "por": 284,
        "his": 285,
        "In": 286,
        "gh": 287,
        "ive": 288,
        "her": 289,
        "wor": 290,
        "gods": 291,
        "ear": 292,
        "ich": 293,
        "mo": 294,
        "ities": 295,
        "act": 296,
        "ity": 297,
        "ack": 298,
        "ial": 299,
        "oun": 300,
        "ant": 301,
        "qu": 302,
        "ine": 303,
        "end": 304,
        "ex": 305,
        "et": 306,
        "str": 307,
        "co": 308,
        "ard": 309,
        "ong": 310,
        "man": 311,
        "gy": 312,
        "one": 313,
        "und": 314,
        "not": 315,
        "which": 316,
        "ck": 317,
        "tw": 318,
        "their": 319,
        "ition": 320,
        "ord": 321,
        "low": 322,
        "ans": 323,
        "had": 324,
        "ma": 325,
        "ment": 326,
        "form": 327,
        "ish": 328,
        "ary": 329,
        "up": 330,
        "ib": 331,
        "out": 332,
        "Ch": 333,
        "ve": 334,
        "Egy": 335,
        "ign": 336,
        "18": 337,
        "port": 338,
        "Egypt": 339,
        "play": 340,
        "ship": 341,
        "op": 342,
        "aft": 343,
        "ould": 344,
        "ass": 345,
        "other": 346,
        "cre": 347,
        "res": 348,
        "comm": 349,
        "its": 350,
        "ge": 351,
        "les": 352,
        "ations": 353,
        "ally": 354,
        "ill": 355,
        "mor": 356,
        "ous": 357,
        "Ar": 358,
        "ight": 359,
        "20": 360,
        "our": 361,
        "des": 362,
        "over": 363,
        "me": 364,
        "but": 365,
        "du": 366,
        "ach": 367,
        "St": 368,
        "ory": 369,
        "ave": 370,
        "ph": 371,
        "ide": 372,
        "gr": 373,
        "pos": 374,
        "ome": 375,
        "fir": 376,
        "rit": 377,
        "off": 378,
        "old": 379,
        "ll": 380,
        "Egyptian": 381,
        "deities": 382,
        "ser": 383,
        "who": 384,
        "iz": 385,
        "ough": 386,
        "He": 387,
        "ted": 388,
        "part": 389,
        "tim": 390,
        "umb": 391,
        "game": 392,
        "ied": 393,
        "ild": 394,
        "craft": 395,
        "also": 396,
        "ast": 397,
        "GA": 398,
        "ak": 399,
        "au": 400,
        "she": 401,
        "tle": 402,
        "Th": 403,
        "aw": 404,
        "ound": 405,
        "ings": 406,
        "pre": 407,
        "inc": 408,
        "ten": 409,
        "year": 410,
        "spe": 411,
        "has": 412,
        "ions": 413,
        "cl": 414,
        "ark": 415,
        "ason": 416,
        "first": 417,
        "own": 418,
        "bo": 419,
        "ire": 420,
        "oc": 421,
        "have": 422,
        "pres": 423,
        "reg": 424,
        "aircraft": 425,
        "rel": 426,
        "ty": 427,
        "two": 428,
        "ved": 429,
        "cont": 430,
        "int": 431,
        "this": 432,
        "@,": 433,
        "@,@": 434,
        "@.": 435,
        "@.@": 436,
        "div": 437,
        "main": 438,
        "ile": 439,
        "ky": 440,
        "uring": 441,
        "work": 442,
        "It": 443,
        "fr": 444,
        "fe": 445,
        "ure": 446,
        "ev": 447,
        "ames": 448,
        "ning": 449,
        "gro": 450,
        "dis": 451,
        "ace": 452,
        "Ro": 453,
        "cord": 454,
        "201": 455,
        "ust": 456,
        "more": 457,
        "ious": 458,
        "them": 459,
        "no": 460,
        "fer": 461,
        "bu": 462,
        "ance": 463,
        "Un": 464,
        "ree": 465,
        "they": 466,
        "ull": 467,
        "II": 468,
        "time": 469,
        "team": 470,
        "rou": 471,
        "char": 472,
        "present": 473,
        "lar": 474,
        "ok": 475,
        "tem": 476,
        "ater": 477,
        "ational": 478,
        "able": 479,
        "oper": 480,
        "ence": 481,
        "fin": 482,
        "though": 483,
        "als": 484,
        "age": 485,
        "after": 486,
        "An": 487,
        "cent": 488,
        "cess": 489,
        "sp": 490,
        "ced": 491,
        "br": 492,
        "ob": 493,
        "tur": 494,
        "She": 495,
        "ple": 496,
        "ular": 497,
        "Chr": 498,
        "lay": 499,
        "ult": 500,
        "into": 501,
        "most": 502,
        "inter": 503,
        "ern": 504,
        "ub": 505,
        "mon": 506,
        "Re": 507,
        "ents": 508,
        "wer": 509,
        "Val": 510,
        "car": 511,
        "li": 512,
        "fore": 513,
        "200": 514,
        "iation": 515,
        "iss": 516,
        "rough": 517,
        "could": 518,
        "lic": 519,
        "inclu": 520,
        "ittle": 521,
        "ick": 522,
        "some": 523,
        "than": 524,
        "ited": 525,
        "way": 526,
        "eng": 527,
        "ber": 528,
        "spec": 529,
        "my": 530,
        "sen": 531,
        "ind": 532,
        "season": 533,
        "Valky": 534,
        "only": 535,
        "ased": 536,
        "ters": 537,
        "can": 538,
        "ction": 539,
        "been": 540,
        "dr": 541,
        "ical": 542,
        "lack": 543,
        "ung": 544,
        "ue": 545,
        "these": 546,
        "cons": 547,
        "go": 548,
        "gl": 549,
        "Valkyr": 550,
        "red": 551,
        "new": 552,
        "cted": 553,
        "four": 554,
        "Col": 555,
        "ors": 556,
        "ific": 557,
        "sing": 558,
        "att": 559,
        "ade": 560,
        "ite": 561,
        "Ne": 562,
        "ann": 563,
        "Valkyria": 564,
        "during": 565,
        "ix": 566,
        "hum": 567,
        "serv": 568,
        "cal": 569,
        "being": 570,
        "ener": 571,
        "Little": 572,
        "alb": 573,
        "album": 574,
        "tain": 575,
        "through": 576,
        "charac": 577,
        "when": 578,
        "cor": 579,
        "een": 580,
        "outh": 581,
        "ates": 582,
        "ell": 583,
        "aer": 584,
        "ped": 585,
        "par": 586,
        "under": 587,
        "min": 588,
        "used": 589,
        "Rock": 590,
        "many": 591,
        "divine": 592,
        "such": 593,
        "would": 594,
        "ise": 595,
        "sy": 596,
        "At": 597,
        "light": 598,
        "came": 599
    },
    "special_vocab": {
        "<PAD>": 0,
        "<BOS>": 1,
        "<EOS>": 2,
        "<UNK>": 3
    }
}